8d34767a6b7146553c4558587e6969655767875d53525477646858566192747d4c55ffffffa5
b4604c6a2e5c8078614257635141695e4b774c6c506146634a5566595868485a586800000b32
545d9d5d7f525e534c626059738d706b5353715366566071546c7442682b5b6c66610000000a
5a4847784d774978636f5e5e5367686c465e5c6e746c6a656e6159813963615a44790000024d
674468584c844f7b747e55537a67776562757354576c586d70574972649b565f5851fffffbb4
4b63757d607648635458746e5b66806b6a3632766f817d4f637d786e66545b626c43fffffb9a
7cc17a6851948c567a455b7180726b69774e4c7434794b887a445c43767b6e4b706ffffff9ea
40535e5375555a4649896d8e57736d7777615b796a644e46596c5f6d6d604e5a587400000049
5002ae57397c49476b7153735c7b6f5a6a3f8046565c3f8a6f6d5c615371548b5861fffffc4d
434469565e69456b755e55546b3b684c3d573872574f4a596e4a5e6b534a75554e7700000aa9
1c245a6a5a5e636474836152587455865373666f6f5f783e773f536f539348823936fffffeed
27306d684b837473617564637b664e615753606d506584538367725f778c5d7d5b5bfffff718
3266726c4b5072484d536e5455888950846253715965427b71847a7a7e6476466f61fffffbdb
63a268965d73376047959a5a657f7668407f5c546053577f7b45755724805f585550fffffe86
658b74765d8b535957655e4767645c573f5b5c7e6a666f7b5e626e6442795a4e6d59fffffe28
624a887153669c706e7c72694f6e4f6249776455693158816654775f875273726c89fffff749
59316751777a754b7775794571626073847f6e716f63665650374f8095444235465b000000c2
5193627b86498a414b6d6b5d61707d7072686984774a59586d83846e616f7666784dfffff440
79fe738d857654454e5a3b6f607244593f4a9a6d4c4f5c474c4f905a876f5d77ad6500000006
847674657960596e6d557971465e7d86664a574f498055555a343d7339697c457c5e0000037f
235d5b8f704874556b75736f616d6773765164863e4e776452746980476363787a7bfffff6f7
2c198b4d4c5178534b3f65597751668337646b698a558c577a424b4a76784ead9f81fffffbe7
6d6357527c72503c5a6b593a7f76484e6b726c4cb54d7a656a3b4675667a696d5530000001bc
93754a615b857481573c56596f6b6d7f65755c6d7662905065525f8b4c6a60735454fffffed0
557a667d5747745f355b5a5a5786689665754f54605a645586645b77873f94557a3dffffff41
6642807b5f805e537d4d55637b77974d836d6043535467886a6b56587552614e616afffff711
4e7a605e57656154756e6a645d505a5b867977567160526a6c57713f77525c697758ffffff53
8c9c604b7d7775747650765e5e62366a7655825b7e5e514736615d6c637440838544fffffcd1
616f595e6366655e757468a97d586a5f7b59637a5a53524b62626c64776a5f666a7bfffffa92
b0646c84618b5a824b459a4e3a706b8569454989735b2c474b886490435975745b5fffffffb0
4d67614e5454747e607f61766f485a6d565462727777654e5c485d89336a51725c59000002bf
6a6a6977525f496e615b634f705e5e5448666871527566636265626d4b785b65545f000003b9
