76758171a77188799ba8816f7e7eac7aaeaffffff947
acd7748c61717d7da376b7a5a38987999a97fffff762
5c23ad92956b847c5996b5a7608e94828971fffffe23
a0798a9a9f956d6ca0908a6e6c9d726d78890000064c
8984b67d7e8477a57687989e89896a9d7181fffffba2
767b8d73916782799b80ab5c749a9b657a8b0000087f
ac735cb36fb3b56db88678be5f61aca879a7fffff64f
5ddd988a8b695dbb958c7c6fa56b9d80a97600000060
78737498768c68998d714e68a6adaf7dab9c0000006c
7b86a38f817e8b7b70787a927f92736f8b7500000ad1
839da8969a544fbd5774af938cbd82738058000006ac
77789ca683969e81759f9b9f8172989d9d8dffffee05
5b6f80a88e8e6c85777c9fa48484778f9166000003ba
67c0a48f86c9ef7168ddafdbfd756466992bffffe179
546871a1ab5a6f7d7b6065c1836db38488d300000231
9ba1787f74929497807396717a79887f7f7300000b3f
8a6187b49697a3aa888b7c94a9968654875cfffffada
66856576847e80927e648766a28582919392000008ce
ad79789c7c8c77796c878788768f77938b8f000005f1
8080699459a877b15959635da6b5aa6e9e8200000c69
46e2949158747e949e56a17f749abd8c4c6f00000983
8c65a37797adad745b6f8d758fba736e76b6fffffa2e
ac9a7d747b687e538777a0778f7e8ab1b3b8ffffff21
b7688f6cba989b88999d997c8a8c7087958cfffff405
443d8b97b991c57f9e825d918667a1b37e74fffff589
7296b76d8b916d7a9e62a697ae8c5eb66395fffff891
a18d9768a4a2aa5e99b8588669727eae879efffffb58
90a68b7e8a7f7f7992749e709a95937e9d7300000203
a6c2ac7ca170699a5a7d744a787479c58caa00000808
89b5979c89917868aa7a7a77808782717976000008ad
77ab9297678f619a846b7c88789196879693000006cf
aa02959a697b7785a86e8c5375b88d80869a000003a1
