6cd88a77797b8380775d6887a278a46a5d826e769f789f8a71868278a1716678796afffffcfe
6c74779e788d7484885266706b7372847183a1a16e938c77718a7a56575e746b979dfffffe50
a9727b7b7297747c9a6d6f8e7ca46a6744687e5c7496926c6b9287667a8587986e79fffffde9
5a807d71845865b376857e85928564898390638d7f509c699685708b7f7666739b55ffffff43
692d6ac19c716a5c72518295756a6675987c767f8161a7617a57738795706bab5e8bffffffed
8b5b7e5d9069747952614b755e7b789d698ba29e6d7e8a606258a9946e6b9ccd9869fffffdde
1ab37b797c5a707b8078957ec5678c977e9b5c7f617b958f7d66806e6b86864f7a81fffffd5e
6f774c7d7c575ab37993757e727c836f77757c7c767f817596745069837e747ea15b000001af
acc96a756d9891787a76965b68916a68794a817067817c9861927076a4ac79817c7cfffffeb8
99c556426f6eb07d738f878c96497668976191a187607d80687e5a6e8f91658cc0a3fffffc9a
a55c71655b88a6556b5aa9856fb16978678b59657a91839597535b5b83927f5d867c00000203
7c06728e7b918f486b7f815585877454696186808cab9586775f73aa779685776166fffffdbd
d87d647f72865b5a7364977862796d9681669c7f7b9285708b8c877378a85676807fffffffc3
6babc35a755a5f868545789661518d979d6d5d727a85775d908e70b2948860768d72000000fa
7a7c6a7d83856172817877787a796e737375777176777f69767681667d6c77657f6a00000620
3b85a46178558c867a5d7c66796d957b757a7d78737f7873936f538382717d7e807a00000231
82cbb36c877a44517eb27b87856a617e777080836c877481698447467b8f825ebf70fffffcb0
7b7b50795f618d776d637b6f83958e7c6e6b3da6807a636d9c75808e9c7a7d696bc9ffffff61
388ea45f635285c07a639c5f676c945f88b6596b7e6567851e5d70609a967e9460d3fffffe77
64c39db9687d79697e796b6179775777667b62666393ac795185848e509e876d8d420000004c
a29878a964726995825846c78f8e7b469785757563845e98848c8d695a8e888b617ffffffd78
7886846673836b558451877f55657a6a76aaae667a618273a48677708b629f5b829100000231
25557b6a9a5f999b8964a586927e6d8d6c856f77795f6d694e576b918f7f62a58a88fffffd68
9afd82715b73708170756f9f6b8d5f89814e6c999c7e7c8c7aa17b7e9c6b8c59846efffffd27
bc6b836cb057846f545f74858d907f3178a2798bbb6d786864339384587e9b94885b00000163
7d838d78695d648b817d725d4baf80489f6b76633b9075c16b6a7f3d9b72b4a29680fffffe51
a6b49168866e8a5f625c77666d788083728a57678981735f7889a67e8f69889a777c000002a1
955f6d9a9c99938460926faf7f75667cb67d6963c3728685777a787943813eac4b87fffffcd7
1c6d7ca776455b3b618d90978f837e82737d9b737f718a856d74514a5f695794759400000374
856b50867b5466ac717b93a45d8e5e837e716e73966c848ca76a4767716085829b650000024f
550389af778ca25297878b84785f706f58806a83867295866670927b5269838d7f74fffffd96
63614b89b276a8954f966b977268a69a6a8c8187af77802b72734397757e777f504f00000035
