76815f877d9e8351496e6f738a5b8a6f7c6c7362646d44847752ac664854505c8d69fffffdce
6ea47f6c5f8c838d4c6c6981726a73924d7a7e4f5c4c5b5f8d5c6d7a41697a7d6f82fffffbb4
7e156e68756e6957665999677c65737972625275615089956f6c5b6d6885675d7069fffffdab
956c8e6e647a7a617663849584536e847e764d686166716592875292627d67517186fffff8cf
f0996855aa8c8e555982a75d74508a6e3d7f5e5a6591747f5577972d91565f7b9e79fffff8ae
5d74794b656c56669e74795f807c7b7e727e6a8b76717b715f6a5d638ca1655a6f5afffff77b
9b2e55495c4c73796a9d356873825d6f6e939e5d65706b59878a645a807d6e869281fffff9a0
a35b866d675b6e664b6e7e4a55436b79604b52826a6b5f5f6a73666d48986466677d0000044e
a8e05d8c837f87477068995e6f807b7a6d666851603a6b787a717182487f69716d69fffffc89
8d63615d83475a6d598f7097536a897e749c73577c833e52624a676476678e667658fffffbc5
47226f51756a7d668b8c6056534e6d6d69593e937b905a5085806b7e737a7d766687fffffc7e
45b952405b4c6867869e498185a75a857e4d515d6974876c6e875a68893a369a6177000003a6
6f7072707276858c757874717e5967727f857f5e7962577070886f8b668d7a7c787cfffff376
83de8366675e7256767063776c5d65947c555789b3574b81886d647c5e566f8e6d8dfffffaa0
8dac67858892756d7e7c4c7339767e705a965f7a587778588b679799779586597493fffff31d
88637376836e64986373a78f794982715c9c5d326d3d4d868c347169566797918c65fffff667
178d7a4f7a595a42596084a4866c6c697f9c017e5e98556e687cac518863704e7771fffffb84
8a20465a6b3d977a548f5e908e56577e3d65a3a4805973638c9e5e577f5270955da2fffff78d
1d4ca26d676649845a7581674c74856b4f838a9b9e7789745c436d667e5fa77b6f6bfffff557
569f788f4c594a5e4d7b69785c936e7eb46c606cc1926c9a423fac4c4d704e5f7aa4fffff90b
c85242759a7b715b67798f5b708f726f81427559648c709a7b6474737a6368659d57fffff88d
1cb4737781637a6f758270736d7e685c75504e73686a708a795e62598e7063776a72fffffb9d
a8fc464c77909b824d4d7969786994a15a774a835961797980726e9970532a6972a1fffff64d
96567561a15936746b654e4e667a8d5754738b6d7e69779c855d6c7e745ba76f9e51fffff506
7555556b657d7c9375514966896b4d707c646a546d635f6b734f588357766a7e495600000ab3
177b51717290896f7675766d7a7880706b69474450749a88769a8d3c646887646ba9fffff5ab
47693c59525548715d864f5750626f7d6f865779807176706459746d7b614c835a5e000008e7
845360794993776f767d56855d658579487968826d4d7158586d947c5d70547e7772fffffaa0
c33982677b71754e7f82554e71597e7c8355806a9c732f707e6a7731584a6873619600000077
7d1d8f6b5d7e5e5541614666549376645f777b77aa556d9e5e746b4b6191886767bcfffffbec
48284b74788a74685e7255607a7c728a5e9b7c807d70826ca27a888082696f737383ffffed2b
2bd3745c695b6ca63c8b607b634244a17081a73650856c8a89615583788d657a7365fffff9bf
